/**
  ******************************************************************************
  * @file    network_data_params.c
  * @author  AST Embedded Analytics Research Platform
  * @date    2025-11-06T20:10:40+0100
  * @brief   AI Tool Automatic Code Generator for Embedded NN computing
  ******************************************************************************
  * Copyright (c) 2025 STMicroelectronics.
  * All rights reserved.
  *
  * This software is licensed under terms that can be found in the LICENSE file
  * in the root directory of this software component.
  * If no LICENSE file comes with this software, it is provided AS-IS.
  ******************************************************************************
  */

#include "network_data_params.h"


/**  Activations Section  ****************************************************/
ai_handle g_network_activations_table[1 + 2] = {
  AI_HANDLE_PTR(AI_MAGIC_MARKER),
  AI_HANDLE_PTR(NULL),
  AI_HANDLE_PTR(AI_MAGIC_MARKER),
};




/**  Weights Section  ********************************************************/
AI_ALIGNED(32)
const ai_u64 s_network_weights_array_u64[1393] = {
  0xbe98a284beb61279U, 0xbe629683be85b064U, 0xbe0dee46be33ce32U, 0xbd2f41d7bdc0604aU,
  0x3d32da88baaf001eU, 0x3e07ee8e3db18a40U, 0x3e6241d63e341890U, 0x3e964a543e833f1cU,
  0x55eb109c7b5c68d3U, 0x36d34da6d01e94beU, 0xf09ca4757b3640a7U, 0xde83d0747b79c582U,
  0xa2b3c98c1043e8b5U, 0x70eab670d91da011U, 0x7677301e2a86bd55U, 0xaf478c7390aa942fU,
  0x90595b5084a7e0dbU, 0x2b599087cfe75edcU, 0xbd7ba9989034da79U, 0xa072736846ce20f9U,
  0x69a8c0183d6a6c7aU, 0x9c562ad4208ab588U, 0x80d94850638660e9U, 0xe23510ddba459876U,
  0xea888c457099b986U, 0xa0bd6c22a8288036U, 0x155c10ecb9868ea4U, 0x79b14393b0db4b38U,
  0xe0918a4d9479306aU, 0xf943c0a367a9c364U, 0xea8587b5c06b95d8U, 0x803a3ed6d9dd50c9U,
  0x7db390459bdb1591U, 0x5747e736b0a89386U, 0x60de3539f33fb0ccU, 0x6db2d0a76759c2eeU,
  0xe4884178a0b8dab8U, 0xe0dea8caaa5720eaU, 0x2677706fc97968aaU, 0xfca3b6b520b35abaU,
  0xb0943353453e40e5U, 0xea5890394d60f834U, 0xb7e8a6dbf083ee56U, 0x809dee56eeab60e4U,
  0x77fe404ab6d666dfU, 0xa7d6cc8d30ce3c5dU, 0xb0f6489a7bcab0a3U, 0x4988c074ec7de77dU,
  0x9286ad98708458aaU, 0x409844898c8aa054U, 0xd642a06181a95b53U, 0x67cccd7b708386c1U,
  0x5089b2b9af7c209bU, 0x975870dd567eb98dU, 0x87bacb58708d4cafU, 0xa0f4288899eac01fU,
  0xbc3346c43c8f4dc2U, 0xbd454385bd15ff7cU, 0x37a83a183c63fe00U, 0x3d58d4ca3cf802f9U,
  0x3c764f853bf8d6b9U, 0xbc252b73bc410dddU, 0x3cbc02c33c7ccbdeU, 0xbabe13c03a48487eU,
  0xbbbaa117bd19bee4U, 0xbca02941bc867334U, 0x3c84849bbc6798d8U, 0x3c75a2c83b8c6b28U,
  0x3c1406663c64c40bU, 0x3d0b96b03d107c55U, 0xbccaeaab3d351853U, 0xbc83c1edbd3f6acfU,
  0x3cf6c6333c8a8bb9U, 0xbccab081bc54aefaU, 0x3d4b5baabd1e8b16U, 0xbd052b223b747131U,
  0xbd05f0583ceb4728U, 0x3b999c84bd08c411U, 0xbd2b452fbc22a643U, 0xbcd999873bcc2b1aU,
  0xbc1078a6bc4c6977U, 0xbc5a90fabc151121U, 0xbc1cd32abcbd672fU, 0x3d8c49b73bd3c051U,
  0xbbe9f06b3c5309aeU, 0xbc53337fbc3fdd93U, 0x3c5480fd3bd6b3cfU, 0xbb9087ed3bfe6225U,
  0xbf5307c6bf79e2a2U, 0xbf1390a5bf34b400U, 0xbeb25807bee9a3bbU, 0xbdd83f47be6fcb91U,
  0x3e24c2263cf11d98U, 0x3eca1ab43e90efe0U, 0x3f26d8513f0261e6U, 0x3f7327703f4ab573U,
  0x968b45b759a9c8bbU, 0xb8d8455a9a788a37U, 0x965788a9b798c994U, 0x95856657869c8a55U,
  0x448b4b84a644c967U, 0x78e7666a44b75751U, 0x695b5b84a7a9a659U, 0x988597397d8259b9U,
  0x7aa777bba5c57c77U, 0xb998b5b355ad58b9U, 0x7a6ba65797758886U, 0x74a6494e379bb8a8U,
  0xc686779cc5aaca97U, 0x969898753b9b83a2U, 0x799a995967ba7bb6U, 0x6baa95a86d63784bU,
  0xa575668a79543756U, 0xaacb3769b5426733U, 0xaa666a7578a759b9U, 0x5a7987ab86588b88U,
  0xcb7a5a8875a84785U, 0x672ae65a768d9a3dU, 0x6584ab5c7a47aa86U, 0x8675759b9d536969U,
  0x8758478b48468576U, 0x4559e98b5a9d8a2aU, 0x693a8878b89ad8b8U, 0x779aa6938a97784bU,
  0x4d776159cb893969U, 0xabba469a66999b33U, 0xc979ac7897758aa7U, 0x9789687f5ea69976U,
  0x6a6a5c954bb9dab8U, 0x689a39a94c597488U, 0x866b7a8c56b6c6caU, 0xa6858caba56bbb65U,
  0xa79899586b79b889U, 0x898c84cb488d5c79U, 0x4b845a969795454aU, 0x856a9b5f6d856798U,
  0x89a45c9cc574a687U, 0x79e6396974416b43U, 0x96b996bcb97a767bU, 0x5a669a74c56da98aU,
  0xb987cc4776c88588U, 0x479675b84aa7b793U, 0xa97a868db679a735U, 0x768959347c537475U,
  0xb887a69a5779a896U, 0x67286a4c57b5545fU, 0xabc64b7689a7cabaU, 0x576785b292bc94b8U,
  0x65876b866489794bU, 0x89462c727994537dU, 0x598a48b399a94899U, 0x869993b440838786U,
  0x89a9bb8b44892c37U, 0x96d43876a8b2586bU, 0xa5847a877879663bU, 0x55a5aacd3174b686U,
  0x977a726a9a4488b6U, 0x4b4945563bbc9779U, 0x5655697867877897U, 0x87b58a48149fab99U,
  0x677a7966442ba4c9U, 0x9716a7838aa656d4U, 0xaa655499c978a759U, 0x56a575c2289e7778U,
  0x797ba98a65c5bb56U, 0x85d56a6b6876a967U, 0x88677c78858999bbU, 0x977686a4989a5847U,
  0x66775c5ac8785956U, 0x55a93b8848cc8525U, 0x88956978ba474a4bU, 0x8984887aa65da678U,
  0x92697859687845b9U, 0xb675d85a65c2b587U, 0x89a6b567c69a89c6U, 0x979686c50eaab657U,
  0x498878c7ac7b4a5bU, 0x59b69ab5b78aa783U, 0x88aaa56d8b88d7b9U, 0x8677a8d7b66f7acaU,
  0x4584ba54893b8c6bU, 0xb8c8258a75988864U, 0x87bb86c8bb6576a5U, 0x95a977d6aa606aa8U,
  0x6ca4966758b54488U, 0x44594b44ac9976d4U, 0x88b64b55767a5888U, 0xa4578a316d955789U,
  0x49b783b87835cb66U, 0xca4a395874ba66daU, 0xb8489b84a9ab4848U, 0x99b9cdb878ba8867U,
  0x55778dc3856554aaU, 0x8665637758429549U, 0xb737a58a58a97589U, 0x68a969aa79755799U,
  0x7b8b92956788abb6U, 0x99579957b67682b9U, 0x768c58bc567674caU, 0x689879a971856894U,
  0x89899e77847c8736U, 0x5857969574a95b53U, 0xa7c6544a48b7b968U, 0x978aa854b17755b6U,
  0x88776c4797c96ca5U, 0x98e6777458526a6bU, 0xc875855c689b775bU, 0x68aa95367c818acbU,
  0xba866247a94ab995U, 0x9426b8c98758bc7cU, 0x689bc5a9687b6a77U, 0x88585944c9769796U,
  0xb27975799599a466U, 0x86289bb589477c96U, 0x99a6ca9c874a677aU, 0x9b6aa592abb1ba9aU,
  0xa9977969782a5498U, 0x584842b3b874597dU, 0x38898c5b8667657bU, 0x8558bba75d8ea78aU,
  0x4b8c588a5bd49935U, 0x6539564b65a85b61U, 0xb7c5866a57857a47U, 0x796498988d7d9b65U,
  0x595861765834a668U, 0x99168a757a615875U, 0x4a467388c69aba95U, 0x8bbb9753dd668559U,
  0xa57c8885b555c5b8U, 0x5ad8d3957c75796dU, 0x969a758c4567a756U, 0x65858c36e9a264b8U,
  0x64b9927796395877U, 0x6a24387b7669ab2bU, 0xb98a7785879b7655U, 0x7aaacb678698bba7U,
  0x758893a4a92735c9U, 0x98676455a9928398U, 0x87b8857547579989U, 0x9945ab6486889977U,
  0x58a6a3879a773566U, 0xb549db958c898acdU, 0x57a98ca45856cab6U, 0x878aa56759615b98U,
  0x768894895b76c8a8U, 0xa73a299786ab7472U, 0x6ab9995578567776U, 0xa59a967034b6a9a6U,
  0x6757a8a78a754c4aU, 0xc97a7769c8355c23U, 0xa6a883a874693746U, 0x79747b9ecc85685aU,
  0xac9b72883b85c8b6U, 0xb73883b9a65a77c9U, 0xa768477d956a56a6U, 0x859484d7989d766aU,
  0x8398a57667c98649U, 0x7a5ad85a64a16984U, 0x7869ac9a7b7837cbU, 0xa696959851537566U,
  0x97544e6899abd688U, 0x86a8c65aba6ca7bbU, 0x6787569896873655U, 0x869864bc3a778ba9U,
  0xa4a8bbcba7b735a8U, 0x964948aa9a7f7878U, 0x59ba577a5579d765U, 0x8aa8688c6a75a4caU,
  0x548698b6aa4a78b8U, 0xaac9785db8b3aa96U, 0x898689b57b89986bU, 0x5879694e2d554b5bU,
  0x685b8db9a6585788U, 0x7a2aaa96acb69939U, 0x698a7699b6899689U, 0xa487a7ae57689496U,
  0x7aab925986a7d479U, 0x75ba3b8a8ab9a8cdU, 0x86595d7876694a88U, 0x69a7b863295d7a67U,
  0x978a9b988acc3776U, 0xc69797b593b4569aU, 0x69b99453a6969696U, 0x565878418882678aU,
  0x5a65858a88daaa79U, 0x78a924b569bd54c4U, 0x689884a5b797689bU, 0x8759879da9be95b4U,
  0x76a8bbcacccbba87U, 0x3ad7b9698b5b7889U, 0x567864ad7a669b97U, 0xa6a6a873925d69b6U,
  0x6988c3b69aa6764aU, 0x69a818b98b4563a6U, 0x35776978a864dacbU, 0x8976b46cdb7d5498U,
  0x8667b5b46cd48559U, 0xa5cb4aa54c8eaa7bU, 0x7a76568498a55a97U, 0x757a69358a766bc6U,
  0x77567a5565464a98U, 0x79aa554448838829U, 0x9898aa76b7b7a97aU, 0x6c85aa41e843493aU,
  0x5aa66db5b9957a88U, 0x5aca586aa56bb68bU, 0x89755858766a695aU, 0x88b6b976458dbaabU,
  0x6d57a456868aab86U, 0xaa57d9a44a987a98U, 0x6896bb9767a5c754U, 0x96b9ba9b8bb7a68bU,
  0xab7776775858a3a6U, 0x58783b8748556cadU, 0x599a974b99a97769U, 0x86976b68577ebb7bU,
  0x4367586946b83b86U, 0x7a28384c6a7cacb3U, 0x4757987c56aac749U, 0x8a8a84cd9b7978b7U,
  0x547b499a6a99a457U, 0x7887b74638c585c5U, 0x47c579a587874a9aU, 0x897b984bd89a74a6U,
  0x8795a5448bda6b75U, 0x67965caa8b457798U, 0x6bb7ac8a596776abU, 0x9778b73c788b59a5U,
  0x89585b675b4c3758U, 0x565b7654694cb63cU, 0xb6b75b9b95a8a8a6U, 0x95a57b99d6cca865U,
  0x6898429a8667a867U, 0x77c97979b7cf989dU, 0x696b86b3b99b6657U, 0x6995bb313c8176a8U,
  0x7b99adaab96636b9U, 0x7a6658a8847a9ad6U, 0x7b977c7c8958cb57U, 0xa86b843393819479U,
  0x7c7a925997347567U, 0x9a96cc6a7b9d4cddU, 0xa78bb68979786997U, 0x6797b62bd55b4cb9U,
  0x499bb7776835d646U, 0xa7256ab27a72ba4aU, 0x6974b7bd8ba9a6c5U, 0x76a66b7c54888468U,
  0x8a6b4d7789258c97U, 0xa6e88578896c7b84U, 0x9756584c9879b744U, 0x585898c86973a65aU,
  0xb679b28a88d4c58bU, 0x5b58d7977792ab8cU, 0x88ab996838ab695cU, 0x7b97663ccd939687U,
  0xa5988648798b8655U, 0xc98666a5a86a5943U, 0x99aaac88669568bcU, 0x9a989b98adac6ccaU,
  0xc67853867baa74a9U, 0x97364896aa95aa44U, 0xab49a77b3b6a4889U, 0x975baab4ea8c6886U,
  0x45659c86aba58789U, 0x9985884b797cb693U, 0x77967b8687983745U, 0x4a79844c69438879U,
  0x66959a5a75abc4a9U, 0x59c596a865bc9c35U, 0x497ab66c64676788U, 0x5a8957d67675b657U,
  0x4aa57a999b864886U, 0xb7c9699a76899cbeU, 0x465a8b9d689966b7U, 0x787976dd4b8958caU,
  0x999488587bc6d5c6U, 0xa6496bb7766955c3U, 0x99568b97b5b73a79U, 0xa8ab8748c89f7748U,
  0x57578e986777b67aU, 0x5b49d8948ca95683U, 0xc5ba857b565a87baU, 0x665798ceb3636998U,
  0x75a5ac9678daa7b8U, 0xabe6787a588b766eU, 0xa89476999688a6a6U, 0x797957a2a7b7a668U,
  0x58a7837785b8a845U, 0x65b5b6bc657d5933U, 0x887547587876cacaU, 0x77aa6aa4256e7669U,
  0x4679697a6a597476U, 0xa976a5b5759676a6U, 0x65994774b67649c4U, 0x59755863be567a86U,
  0x776a8c984b599765U, 0x88a8c78bc6427c38U, 0x663aa5796968da77U, 0x7a774a833e7c99a6U,
  0xba98678995596687U, 0x88b77b67585eab87U, 0xaa7b8a83678938a6U, 0x5797788589609a68U,
  0xa5949e679684c895U, 0x76cb4c8a6c8c875eU, 0x7b864597658bc888U, 0x845558c9d8b258b9U,
  0x847856a6b7663cbaU, 0xc8887b98698366c6U, 0x9849a57335a89a85U, 0x975a5bd1a671765bU,
  0x5856ab968826d666U, 0x988a66aa874966b5U, 0x48b76c87b86b6547U, 0x986a8496235c7834U,
  0x697a9b567ac476c9U, 0xba78a57454caa894U, 0x5a7ab8a3c8697a7cU, 0x67a98c532c7366bbU,
  0x795a726b74a4b7caU, 0x67372478658876a9U, 0x768777b77a68a86bU, 0xa7798532d66e786bU,
  0xc58cb77a995647c7U, 0xb967bab6c4839982U, 0x655a979b7aabc6b6U, 0x7588968c7abc8987U,
  0x8367a19997a62585U, 0x588a48bc6a79b59cU, 0x75478d59a777d6caU, 0xa889958db78f87b9U,
  0x485a877ab7777479U, 0x67a55c8b455879b8U, 0x6a35599387874a89U, 0x77596b45caac7588U,
  0x7d7595858ad74589U, 0xb695454ab5749b32U, 0x8aa989aa66a67758U, 0x7796aab8a76db5cbU,
  0x6c98949b7678a7a9U, 0x5767a4656aa374bdU, 0x558b599857ab586bU, 0xa6667341759a9aaaU,
  0xb37a9273c73ad645U, 0xc9a649b5a4a75354U, 0x557688987bb97985U, 0x748757b7dc88abc9U,
  0x4aa5739668555547U, 0x48188b4c888a8355U, 0x987786497a5aa845U, 0x76855c36e980c457U,
  0xc89ba9995b76398aU, 0xd5b8469649988a6cU, 0x667baa64ba7739caU, 0x5998a5b7d498aa66U,
  0x8caa6b9c67d42c7aU, 0xc8d6bca696bc83abU, 0x899a74bb5aaa5597U, 0x797785aac56d78b4U,
  0xb3a785794baaa7a8U, 0x971965b5ad7b89b3U, 0x69baab64aba78887U, 0x85a5a47a28618796U,
  0xa46a73967a56b5a7U, 0x4574d5776778856dU, 0x3688a648b89758a4U, 0x78588978457894b6U,
  0x5c6591a49b87c967U, 0x8ae69869a8539aacU, 0xbbc55a6996658a47U, 0xb8ab65786c66b855U,
  0x99868dbb57b47896U, 0xb73836a5c973ab69U, 0xa867a6b3658a3888U, 0xb767889e88697575U,
  0x45a75dab6a343c46U, 0x7b28788898649b46U, 0x658a89748767a6acU, 0x55b6876b75a85bb7U,
  0x97588c97b65476a8U, 0x757627a88cba6bc3U, 0x8584979ca7a768a4U, 0x688b6a992983bb86U,
  0xb5a363556b7b7488U, 0xbbe75aa669ce7969U, 0xa685686c7b547996U, 0x85b6a7aed4895b69U,
  0x5464aa777a6c7aa6U, 0xb72858b7b78da997U, 0x9678569a9896ca47U, 0x59b57c3db6644ac8U,
  0x97568365573cb3b7U, 0x9855566949729b9eU, 0x477ab45e6677c654U, 0x665b58decdaab689U,
  0x4c696856abc89767U, 0xc58aa698c95a785bU, 0x7a664baa8b86798cU, 0x7968a97b8d5da74bU,
  0x599679985766d897U, 0xb54a4a6cb5c76adaU, 0x9785b49da5a789b5U, 0x9a859a53648ca46aU,
  0x8d6b87b596d97857U, 0xaa37caaa67a39a92U, 0x49449a75868a9a5aU, 0xab7469419355a986U,
  0x69ac93a9bb96cabaU, 0x65f4d67b87a18b9dU, 0x74758ba34677986cU, 0x77a445b7a8b5bacaU,
  0x7667a79966c438caU, 0x696aa474868274a5U, 0x6558646cb557a7b3U, 0x899a7a647aada986U,
  0x79837e8868a79995U, 0x76fa4a8878898914U, 0x68847976a8997585U, 0x8b87553768975577U,
  0x9c5aa4447ba63649U, 0xb56acab7798dabb7U, 0x9887a7b69aa8c979U, 0x7a674865e96ca97aU,
  0x8ba6ad68a88aa687U, 0x68b7c8a4a84b8465U, 0x9784a9aa4a665aa4U, 0xb679b97f8c5fca5aU,
  0xa77878736b84d796U, 0x786455b95c4e69b5U, 0x85b6a5866456b7abU, 0x697a699ad6786875U,
  0x47647689a84885a6U, 0xb529d9966796a783U, 0x6746b6634455665aU, 0x6958a473dd9c7ac6U,
  0x748ac64a9bab7ca6U, 0xc78a74b58673899cU, 0x4b4b7a4396a56799U, 0xaa56879e3778a875U,
  0x8875b7a4a7da8d55U, 0x3798599658329acdU, 0x9469387c69a7764bU, 0x6b6b67cea2b15947U,
  0x53a38678a9d497b8U, 0x3659c9ac7768a42dU, 0xc9668776946ac657U, 0xab9b56df756eb897U,
  0x7b887584b4975aa9U, 0x59d51866988c75a9U, 0x4b899b59b998c6b9U, 0x87658c52ad8db497U,
  0x4ca85554b6478b46U, 0x95349b38744c7c91U, 0x69b96aa297bbc785U, 0x5b49795ebc7e76baU,
  0x759b4b5ac928b989U, 0x575ab664788ba5adU, 0x6644796dc655a998U, 0x878ab6dbdbb1a798U,
  0x9c9b56957969975aU, 0x88e878b58ab29bc3U, 0xbb9b95adc577aa56U, 0x896a883596b3a769U,
  0x84a861ab76346878U, 0x58db7454759683aaU, 0x8528ab7c98754878U, 0x757b9455cb706565U,
  0x9c845bc9a59a88a8U, 0x9959979b67999d3aU, 0x78486ba776755686U, 0x557468a7bb688b39U,
  0x93b7a7798c7ca369U, 0x68ab6a4b6a497ab7U, 0xb6a6c86c87979b35U, 0x7958b78c5c8e5968U,
  0x62747387a556d89aU, 0xc9759577a67c684dU, 0x5bba755d6a55d786U, 0xab88a65a9a8d6998U,
  0x55ac817558b62948U, 0xa5e78c9c6a6d75c4U, 0xb8859464a569779cU, 0x96975687838aa8aaU,
  0xc9689a4ab9743649U, 0x57e5c99b88746c35U, 0xa598987b6a655878U, 0x779677c1c78958abU,
  0x5a689db545acd7aaU, 0x7a253aa47878676bU, 0x88585c4b9a8a4b67U, 0x6aba8acc9d529995U,
  0x9c968caa6768b766U, 0x9a4959bd49655596U, 0x894877777488a987U, 0x6bb98b77a9a8758aU,
  0x8c9a997579c84b67U, 0xa7db1a7b945e8853U, 0x867a869a586739a8U, 0x69a666d5b48889b9U,
  0x787aad7478a87456U, 0x858ae5ac79576c49U, 0x3898796396755ac7U, 0x9b76a957857a57a9U,
  0x7853776848846599U, 0x6ab7e58b996abb68U, 0x883a49ada995787bU, 0x8667a78e17a36aa7U,
  0x3f2a9ba3bd880eccU, 0xbf0c83e0bde73e6eU, 0x3e0ef8373f25056bU, 0xbf39f3333d18fd7dU,
  0xbe10458cbf12b3e2U, 0x3e9c069abdbe060aU, 0x3f828b3dbd8200f7U, 0x3ef8e0b63f11e174U,
  0xbd871ad53f2ec49eU, 0xbc9739a43f058edaU, 0xb6845000bf89668dU, 0xbf01a4af3f453c43U,
  0x3e8ce2273f52c3acU, 0x3e3066663f39a572U, 0xbef43a69bcb7e203U, 0x3f000ce63e5203d8U,
  0x3e7be35e3f4db3c7U, 0x3f31c92c3d520dffU, 0x3ed7874dbdca5291U, 0xbe1a637c3e87995aU,
  0xbc262f853ecb0d34U, 0xbf093ad8bf066327U, 0xbea24aa9bf181e60U, 0xbe4b91a43f0d856aU,
  0xbdf3f11fbf38e2f5U, 0x3f5726c73e21facbU, 0xbeedd7b5bec6cc08U, 0x3e23a839bcf0337dU,
  0xbea4621a3e4b9a6bU, 0x3dbf411f3dea3ce6U, 0xbf1ee68fbeaa5528U, 0x3e58e4d93e9076d2U,
  0xbf4b833ebf627ddbU, 0x3eff54f4be557b82U, 0xbf3ab8413e80d8e3U, 0xbe1af98bbe2fd93fU,
  0x3f0ea00bbebc3c85U, 0x3d14da943f39d029U, 0xbd251876bdd18ab1U, 0x3f4a067a3ec0c16fU,
  0x3f445d42be91fe3aU, 0xbebef742bf3222feU, 0xbe03b6603f00d82fU, 0x3d333c873eaf6362U,
  0xbf1595883f8afbffU, 0xbe12341ebf1a4896U, 0xbe95773b3f5f78f9U, 0x3ec067183e3ab7c5U,
  0xbdee91c6bd10f7d0U, 0x3ed40c86be1df6f1U, 0xbdd9c098bf12b82eU, 0xbf4887e6bcb974b4U,
  0x3f31d4d53ef0ed07U, 0xbf2c6732bf2e5d63U, 0x3f65df7c3ebf89b3U, 0x3e65ade5bdc96d06U,
  0xbebbdda7be3d198cU, 0xbedb49913e622ca7U, 0x3f7cc1f2bf1e8282U, 0xbef23767bd897c6bU,
  0x3d7aa9b23d991b84U, 0xbef5bc82bc103c16U, 0xbe4de3a7be89ed4bU, 0x391e4e003e1f0235U,
  0xbedf021bbf003157U, 0xbe9ed3dbbebe4195U, 0xbe3f9249be7f7da5U, 0xbd3ebbafbdf19550U,
  0x3dc362343cde56faU, 0x3e66e7733e275e94U, 0x3eb1e1233e92ddc5U, 0x3ef854593ed1b355U,
  0x88c6ab3aca4e5429U, 0x7469ca757987fbb9U, 0x869a64da6b978edeU, 0xa796c925aca6aa89U,
  0xe927974d758c6a78U, 0x606987c8a558937eU, 0x85bd5cbba9757a3bU, 0x6c59939986456774U,
  0xc5728798b996e564U, 0xaa853b432859cac7U, 0x7a844a8b66659e6dU, 0xb35554b29a864b56U,
  0x6426cc8a976594a6U, 0x7b7b7475a556828bU, 0x669a5c6265957397U, 0x56b969a0886d387bU,
  0x9b7bcb366a9949c5U, 0xbb67569a78873797U, 0x94786b4e6954ab74U, 0x86784a4bd68ac965U,
  0x4687c9a5b885ab69U, 0x35955ca85b98898cU, 0x29876758964a6adcU, 0x598a7d5cbc8467baU,
  0xac6a8a8a36aa548cU, 0x86658c9c6788a945U, 0x738b7921a4b77798U, 0x96b669c57ca5d754U,
  0x4685839aa4b5797aU, 0x954c7889c89a5153U, 0xab4c87c8bab452a3U, 0x9b66b8acc78ceb74U,
  0x44a996a856e5572aU, 0x45864538ea34653aU, 0x5b86559b2aa699f4U, 0x498969567795678bU,
  0xb7755301ca8a6355U, 0x9b857977a69a89acU, 0x972268b28ab84b74U, 0x4baaaa68e65a948cU,
  0x75766569aa254774U, 0xa9687985875d2844U, 0xb4a8a5cd7c98556eU, 0x9d936abd72852b55U,
  0x6bc3e5693384aa76U, 0xa8dc94a7895ba57eU, 0xa68e4aa754487c26U, 0x59793c55e9763a4aU,
  0xb975596685dad3c7U, 0x9f59897989b66546U, 0xaaaaa7d8bb948686U, 0x5d54b72758743b93U,
  0x3965c52acb66688aU, 0xa7766a874b269988U, 0x75c7753594da91a5U, 0xb3b58a87295ad685U,
  0x978e88545856aa6aU, 0xa28a14cc664c5877U, 0x5aa4c9d27b5b958bU, 0xbb899cbc6d7b576cU,
  0xbe66685b95567d68U, 0x52b8a7c8b989845dU, 0xab2666cc86b8ab78U, 0x5c8b977aa97eb377U,
  0x73b9989576b7dc6cU, 0x9a68548d97563766U, 0xa74556bfdac56b89U, 0xc775479e49a8b972U,
  0xb9696dd34a93b9aaU, 0x73c488a745788774U, 0xa977593599997744U, 0x983673b924b65677U,
  0x4b87667758ae44a5U, 0x4885c6aa65b885b6U, 0xc88988a888586c68U, 0x694299b87199c874U,
  0x27b593e246b89258U, 0xbcba75a976b495b3U, 0x933aa7595ab85e7bU, 0xa56532a478683b2cU,
  0x978a564766156de8U, 0x51bbbbd4b8c7a699U, 0x84379981847ba763U, 0x85845accdd66a8cbU,
  0xb889d3b9777abaabU, 0x2a43a59899889da8U, 0x96739ad576ab7758U, 0x7575bdb763949486U,
  0xb54e6a6a5864aa54U, 0x8865957b97b7258bU, 0x6655a545d8758bc9U, 0x99927b56568a7596U,
  0x93aa1c329a766869U, 0xa7b6776c9a57bd9aU, 0xdb336b6b99c8bcb8U, 0x7a657367caa58d96U,
  0x94c95b595975e854U, 0x86ac754ac6d4a975U, 0x9c4995cad679ba44U, 0x88b4c76c9c74b5adU,
  0x35cb34cf7795957aU, 0x419764b69b8ba782U, 0x46356a4b4657ac8aU, 0xa3b77cbc8c5ba576U,
  0xe444684a7799e555U, 0x85556b33c7556357U, 0x4658b7a941b67243U, 0x83a7a9f3786bba58U,
  0xa6b7659989995a34U, 0xafbc7886b78c9388U, 0x7b5b699d75895158U, 0xa49437b3126c7949U,
  0x4bdda46995c69769U, 0x9357d2c47947b6c6U, 0x8ba4a77a897a6ae4U, 0x884685915367c596U,
  0xea4b9b6976ac8485U, 0x555b759765aa5a7fU, 0xa99c6452379955a6U, 0xc6695555b659874bU,
  0xd74d665b5877c4a4U, 0x777a5ae7574728c6U, 0x66cc9842c778c54aU, 0x8646c8c9a1949b85U,
  0x4ce6eb7dca767a8aU, 0xc9478a96d7bb64a4U, 0x584474338a967b79U, 0xa7aa992b9595b669U,
  0x435957866a845359U, 0x3c65bc5946a4763bU, 0x8bc7a51cc2467a24U, 0x696b5553a584dc82U,
  0x267855a94cc65b96U, 0x37c9abc676679b58U, 0x67a6a8aac9c3544bU, 0xc98812779687a5c3U,
  0x7948559b667aa487U, 0x648767781755ca4bU, 0x7a6a6b772b857638U, 0x975a99568a46375cU,
  0xca8c999b9698b297U, 0x76c4858ba5576c56U, 0xd5465a828b997656U, 0x9337c686d582e4dcU,
  0x4b4d344a94c84a9aU, 0x6c94b9d827866936U, 0xa846ba9f7c974ab2U, 0x655768d35d87bb56U,
  0x4ed79d1a3abca6a5U, 0x5eb69b568ac96ebeU, 0x5855853c96a9b9b9U, 0xbd448cc4e5a3885aU,
  0x973d48daa8b4c5ccU, 0x75688a68b8679a86U, 0x6b4875b5a597a868U, 0x556a498d5b5342bdU,
  0xc545f03454737689U, 0xa0b8b89988b58799U, 0xc876667c4779856aU, 0x3a9ab2771a7e6889U,
  0x54977a3b498bc33cU, 0x1e9aba88b55ab554U, 0xa86ab59ba3ca556cU, 0x7d47c49645977b87U,
  0x764332173a64a8a4U, 0x694c854a8bb47972U, 0xc5a57a51794a888aU, 0xb354c461146487a7U,
  0x96cb469b884b1759U, 0xb9985a5768cb76d9U, 0x7479b68f465664cbU, 0xca52c9984ba65a8aU,
  0xea79f83db7ba82b4U, 0xce6595869a7a836bU, 0xba73aaa586a47c58U, 0x6a665c4b637d7b45U,
  0xbb78b4369956b4daU, 0xca98357a6a4626caU, 0x86a75413beb59c56U, 0x726a96185c555539U,
  0x74b8864777a65284U, 0x6d5286b9445775a8U, 0x842a88a65a76a267U, 0x2a47755a8782742bU,
  0x3246acaba7c77476U, 0x63968a974765c695U, 0x883587b354437acaU, 0x5cab983d3966aaa4U,
  0x7937b98aab985569U, 0x45a87aa929899585U, 0x88ac6499b749c2d6U, 0xa876b69d9c834263U,
  0xca93577976377569U, 0x978ad9a7459a579dU, 0x53c969b5da7b5374U, 0x5b52c6827b77b98cU,
  0x9d84387d9a769448U, 0xbb7777a82ac56997U, 0x79baa55c89355a96U, 0x8a487b41735588a7U,
  0xcc67a9b96a2db466U, 0xb969f20929cd8a4cU, 0x9986978c57c689b6U, 0x45995bd75284d4b7U,
  0x79de4b3b6aa6a7baU, 0xa66a687bbbdbab76U, 0x7917ab938676963bU, 0x66775b684ab46857U,
  0x5545a57775f42b74U, 0x1267b4a5874ad93bU, 0x79398547d29a9442U, 0x88b97a7b3b6767a8U,
  0x978875987abb7994U, 0x6fa5684a67467466U, 0x9bea793d67699a54U, 0x6aa89359db5ba948U,
  0xb5c3c77579db5aebU, 0x6878b57889466ba9U, 0x64777567b6aa73c9U, 0xbc4b5b53c279a467U,
  0xa4978aa965bc9949U, 0x8da9799b95685d77U, 0xcbc3574b8657a649U, 0x5b29625149578b93U,
  0x59586556998b94d6U, 0xabaa76688579da2bU, 0x939996db5a8654a6U, 0xbb86782e9a87ab8aU,
  0x6834e79b638968a7U, 0x3f299557a4a79d66U, 0xacb756387937996cU, 0x5695d5b836b6638bU,
  0x69b5bc3ab876b735U, 0x978523687a65875cU, 0x464987a949a74b6aU, 0x9d4cc873bc764496U,
  0x15b85baf67678a86U, 0x55e485487694af98U, 0xb9bbb6aa9a3a7ac6U, 0x36b8b853649883bbU,
  0xc78b6a8988e6473cU, 0x3a66a72998a869a5U, 0x69b7663ed3949ad8U, 0x96567848bc78bc62U,
  0x6ba8a9c9c7749877U, 0x9d755575b7cb9149U, 0x5a3567b37463428aU, 0x368b9455889d849bU,
  0x549844895acd59d5U, 0xd394a42a79c915b4U, 0x8655ca4dc4659a95U, 0x7b997abd72b6d995U,
  0x84cda565459b8b87U, 0x9d65ab7a564a88acU, 0xca38a8868aa7bb44U, 0x8b5a536198a53437U,
  0x36643666783846bbU, 0x91845b89a846a946U, 0x8ac8aaca2abdb7bbU, 0xa47cbca955756b9dU,
  0x845fc6c6d568b255U, 0x8c496b388c438658U, 0x69d3696a78cca42aU, 0x95c439a2d3669626U,
  0x7538a936a5c6a896U, 0x9486a527958e4567U, 0xb557748a1d9a9a65U, 0x519b47264486a39bU,
  0xc79339427b6a8668U, 0x89e777bb56a56abaU, 0xc633867745796745U, 0x44c9998c645bc774U,
  0xc667ab445959b668U, 0x7a7a68e4969a26a5U, 0x49669768554a6724U, 0x374dc734b4865d9cU,
  0x98682299b65cba8aU, 0xc9dc8a7667ada467U, 0x897a869a77ca93acU, 0x4548e6ac9698899bU,
  0xaa675659a5c6a5b5U, 0x5c588855aa3c9bb8U, 0x578595d0eaa75922U, 0x6a676ad123946955U,
  0x6453277a85598583U, 0x471387474826aa6bU, 0x6b9a645a794345c6U, 0x48a8a860cbad9656U,
  0x97b977587aa4e6d8U, 0xac6935c649434545U, 0x55c59ad845476b76U, 0x98b97a4431897a54U,
  0xb28385d85a7897aaU, 0xb7ab9757b6c8898bU, 0x4a37869b7ac95176U, 0x297b7a5934bbd245U,
  0xa89d7bb8b74b97a4U, 0x565ad9b5c848ca8cU, 0x7aa88abaf389595dU, 0xb7a3294db555ad55U,
  0x692ac8e9736aa786U, 0x9d656b6757c3888cU, 0xa885a88b49b6a8bbU, 0xa8b9e7be9b8f7454U,
  0x65ce67a9963a3619U, 0x4a99a49c575a1454U, 0x9696985649684ac9U, 0x9bb29b44438b9695U,
  0xda3b889b455a9346U, 0x44968a5aa8597462U, 0x45c786ba79b48a28U, 0x776744be577c87bcU,
  0x56a494997762ab67U, 0x4ab78b8ba797978cU, 0x778588bd7c7565c6U, 0xb388694c5a6ac67bU,
  0x8556ae2c854aa9b7U, 0x5a7b854978347d72U, 0x6aa289d55975ab34U, 0xd3ba9c5984ac699aU,
  0x478a9557a778baeaU, 0x45948a3c854aba54U, 0x97995a4565776d28U, 0x8b7967447b5894acU,
  0x3c3a8c16755c6697U, 0x643ca47767c99b41U, 0x74eb85529a7b6c85U, 0xdb7482bf3cb53453U,
  0x744a6887a887c6c2U, 0x56a4468bc98c8abbU, 0xa75b56337677564aU, 0x49773a6a86654b8aU,
  0x94537a7147565659U, 0x5d667b87d8d2a77fU, 0xb86eb865b92c6895U, 0x545c6253e86c7488U,
  0x7a7d846986896652U, 0x4a98d6c8894589d6U, 0x4876b77a89a76aaaU, 0xa897dc77a0a945acU,
  0xb793e2898993a765U, 0xb5ca7585b7a38858U, 0x7745a87ab778646aU, 0x4488438c996e443aU,
  0x4cb4976777e3dc23U, 0x8955b46a88859ad7U, 0x7a6aa89ab78596acU, 0x3256a99d716c8586U,
  0x248033397b678778U, 0x646c96674a868566U, 0x95597b9859466695U, 0xd9b42c3c1d6d9456U,
  0x8b778cc786c22ae3U, 0x8a7a7787b8b579aaU, 0x8a4467b16a96bde2U, 0x8856981d38a6676cU,
  0x947dba3197b89c95U, 0xb1249847c5ba776cU, 0x9a54a4db8b585248U, 0x754688af1c893aa9U,
  0x68684739778da483U, 0x538a269c887c76e9U, 0x8987a69736a57ab4U, 0xd3545a9bd35a4353U,
  0x7a8a98c9d47896a8U, 0xb59696567595636aU, 0x783eb476b894ad47U, 0x49585856955e785bU,
  0x97bc86c589cb3735U, 0xd3aa5739b6b7667dU, 0x86b7677e56798b79U, 0x64ab845d5c994b77U,
  0x6cadd215775a9644U, 0xc6637a66aaa7785cU, 0x6a9578b985987533U, 0x9999664c35959346U,
  0x669c54764598aa73U, 0x8dab79abd8bb9474U, 0x99a6a8472479ba2aU, 0xa6856ad3b2a99396U,
  0xb59af25aa8a89a65U, 0x4cc9694479746a6dU, 0xbaac796785588b4bU, 0x3a741c6a59875787U,
  0x293558498824a634U, 0xb79b77b987963499U, 0x66678a4e7476565aU, 0xbc6785a282888567U,
  0x2bacdb16c94a4858U, 0xaa9c7a9744ab567bU, 0xa5c593547b6cc589U, 0x8565293cc9643979U,
  0x6373b6ba67686624U, 0x3b77c779aadc98a8U, 0x7596a83968596b16U, 0x959a75e6a65b886cU,
  0x1aac53254c527488U, 0x7a667999a7777a74U, 0x99f65ab2575b8dc9U, 0x289756911573ab57U,
  0xd5d98a969555b956U, 0x6c899a8889ba1bc7U, 0x5a8b5586655569e5U, 0x7c6ab61b4d573779U,
  0x744782049b58b868U, 0x9c8964a7d498554eU, 0x783c67b97a45a3a7U, 0x6697d34ce28a496bU,
  0x169544a977c8b952U, 0x5577d4783a764485U, 0xb4a799a7c3bc987bU, 0xadcd59d63dab76b6U,
  0x9ac4057b4cb974a9U, 0x8a7b7478b64aa898U, 0x986379ac6bc9ad67U, 0x8a74579d05aac837U,
  0x9c48474aa877e37dU, 0x8664c869a9655796U, 0xaac86563baa88bd7U, 0xa669e549a07789b5U,
  0x8762c77babab6889U, 0xa4d697d999a98587U, 0x96c3957949969997U, 0xc6ba6b9b7a8e6d79U,
  0x8b3558b79a762a55U, 0x2785ecb57674aa58U, 0x45b56a46c8a6c98cU, 0x4d7cc9a96599547cU,
  0x2ad47154a65d6688U, 0x9188a89aaa789a55U, 0xa9536ab4896546d8U, 0xc9669769b8a8cd38U,
  0xcdc165bb5ab7556dU, 0xc998d549d796a656U, 0xa84955a8379955e8U, 0xb799896a69b839bdU,
  0xa9bb96a3579b776aU, 0xbb7987969a9a6253U, 0x99b49ab69b65b34bU, 0xbab739aa965d7b99U,
  0x8673b5498565cad7U, 0x2a6a777b776ad9a9U, 0x934a7a63a4768c89U, 0xc1739942a575a9b5U,
  0x7679ba87c9876985U, 0xc50c848768c77388U, 0xaa568559c8583b45U, 0x6a8a93a9a8ac9467U,
  0xedcb46c88ab37c75U, 0x7aac343a7a8a2b35U, 0x763574b4cc548766U, 0xc7b996cf6379c99eU,
  0xb55aabb4a6575285U, 0xdda6aa5a79356677U, 0x796468b348797855U, 0x2775577d8d72b8c7U,
  0x7c9c87c56b71d48bU, 0x345bedd938a538c4U, 0x8594bbbe39c4584dU, 0x378874a875a7834bU,
  0x865a1c3ab9a858b8U, 0x595a8ba8868a8c65U, 0xa8ba8b47568549c5U, 0x44b71854a972abd9U,
  0xcbcc9a5a652c8645U, 0x6d77d6336548f94aU, 0x94765993694aaa87U, 0xb5b6969aaf477687U,
  0x5d5a7c4e9b979a94U, 0xa58559a7254c7a77U, 0xa444b39b88a987baU, 0x86a754a3b48dda56U,
  0xbcad78b999695a45U, 0x4757579a86cc5ab8U, 0x8b558b34a4bb63b1U, 0xa96a58535967c678U,
  0x85942c8d85547459U, 0x2565a8657669989dU, 0x738a9a9c67879da9U, 0x6d65b874b58c3359U,
  0x4bb464a75772a925U, 0x768586b3baa4cb34U, 0x7787a6b5ed75c926U, 0xca949658886a6a88U,
  0x7c368b41ba3dc589U, 0xc883644a87667986U, 0x469679d987bdb5abU, 0xaa5a49a9768235b5U,
  0x4736864d696be489U, 0x3755677b566ccb87U, 0x8577382825747dc6U, 0x5aa6d659c79ab97dU,
  0x32aaa754c89aa647U, 0xa16a86c76b967955U, 0x88279c678986ac78U, 0xcbc5975718627949U,
  0x356b5845b6f4a4ddU, 0x33a79b1aa78ce67aU, 0x78b5a6477577ac29U, 0x465c74a76955b89bU,
  0x2a64a9484b68aba4U, 0xa4ca6c85948b8576U, 0x8568a6cc5575cb67U, 0x786bd88d89746332U,
  0x94cca635a6462767U, 0x84aa23a9b6a53868U, 0xb87586dcdb9a675cU, 0x669bbac766968566U,
  0x7cbd144dc9997866U, 0xbb3a69589674a953U, 0x9a6b77b2b57a6a3aU, 0xb75ba589386a8575U,
  0x3fa28d70bfd18d42U, 0xbf1dc6b8bf44ba28U, 0x3f1368623f8ca66aU, 0xbfa7d4993e3b252eU,
  0x3f1439d73df833fbU, 0xbe9fe9d4bed95d49U, 0x3f9b2073bee7f6acU, 0xbe9f9d2c3ed132c6U,
  0x3f6876be3f8e9a03U, 0x3eb84eb0bf9ee33bU, 0xbf5716023f95903aU, 0x3f00049f3ff8da81U,
  0xbf7b5ecc3dd4a110U, 0xbda081e83f236fcdU, 0xbe905883beac13e2U, 0xbd4171133e007a03U,
  0x3fea30413e822025U, 0x3fd631c9be7eef77U, 0xbfd3f3373f642dc4U, 0xbe6e44763f8392b1U,
  0x3f5203423f418ee1U, 0x3f639e4fbd88c744U, 0x3f75fa3cbcd78558U, 0xbe0711483ec78d42U,
  0x3f4edae33f9b6d76U, 0xbf21572c3ede25e5U, 0xbe165efebfaf3a76U, 0x3eb35667bfa42a6fU,
  0xbe21b1ee3e6cb198U, 0x3ea28a51bed35b18U, 0x3f1cf9f83eb491f1U, 0x3e3d24603dbcecf5U,
  0xbecb2e14bf064936U, 0xbe93b5bdbea99990U, 0xbe449413be770a51U, 0xbda6c48ebe0ea24eU,
  0x3d2e452dbc8f59ceU, 0x3e2ad3b33dd6575aU, 0x3e88b3ea3e628b28U, 0x3ecb3da33ea1b6d0U,
  0xbc6e5aab6ba5bc9bU, 0xdbd8b8a6e9d5744eU, 0xb16c0b668c84e674U, 0x5639878b4825a7baU,
  0x45895dbc8add89bbU, 0x3848e3b845879cb8U, 0xc897556c58bb8d68U, 0xaa6b99987cb55547U,
  0x9795aadde78d775bU, 0x595b7669bd39a96cU, 0xc39ee44eb794848aU, 0xc67947696a79c7f4U,
  0x1c53667b97986b62U, 0x766ab8755d52a4c2U, 0xa1c3b9b74be6c8a3U, 0x84dc98479ddb69e7U,
  0xb7ba63955bb67a76U, 0xb7c54a7a2e874cb8U, 0x4e349da244d5b395U, 0x7bbb9686c2ec672dU,
  0x87ac6aae54375b89U, 0x58caa5393dd23b7cU, 0x5e5b9cb4c6277d8aU, 0xdb687978a65848ecU,
  0x875a57469b858abcU, 0xda3b8adb85a5a4b8U, 0x894485676e7aa488U, 0x787a6e8b59a4585dU,
  0xb557a2d3da759b19U, 0x5983e298abe488b9U, 0xcb32c59398a6854eU, 0xfa54657d5b43448bU,
  0x3c44a939e663ace7U, 0x86d96eb6745475b8U, 0x71b6136b72abcd58U, 0x6454ad868756a59aU,
  0x358aa848bc896445U, 0x47daacb8b49dba89U, 0x7c7c9bab6ad6cabaU, 0x5c39688b6b8d5c68U,
  0xc7ad895698987c6cU, 0xa949c487d8a6b74dU, 0x898df5a9a36c326bU, 0x44c65baa7a6976a8U,
  0x2cba5cdb8c989a8cU, 0x68b94de93498c9beU, 0x7ec92a558a498ec9U, 0x7ca7b7a684446999U,
  0x26766c44b8d7b8b9U, 0x87abdb76b7485e36U, 0x7a87c7aa5ab738c8U, 0xd568aa89b5878a5bU,
  0xb46d9ac6647469a9U, 0x8967525768397899U, 0x7489e556d5ac9aadU, 0xd4a899c5b7849ab8U,
  0xa48b9a7576879525U, 0x7b983887a679756cU, 0xdd6518a5cc892a73U, 0x4aa743b977cd4597U,
  0x46ac56a97c7875a9U, 0x79aaa448a6ab8679U, 0x5b7a47d93bb69894U, 0xd74689c884dc685aU,
  0xa87e6b5588b27945U, 0xbba3edeaeabab668U, 0x2579b7c565b9dd92U, 0xab4a955b8c479684U,
  0x857ca6ba6ebd9b4bU, 0x76e5546ab7ba5e65U, 0xc5b6dbccbe6ba5adU, 0x78b88b76c667d643U,
  0x86c7998adbc87776U, 0x5965e9777948ab5eU, 0xa8889688c68794b4U, 0x66c896b9b6637998U,
  0x96a6baa94858a57bU, 0x79a83e698ba5964eU, 0x3a56ea9c4b5ae6a4U, 0xc4979ba4459bcb57U,
  0xea66a9c74a796a97U, 0x9ca5a88b98957b4cU, 0xac9a964bd6cc56afU, 0xce296ca55ac4db55U,
  0x84ca9559688a7749U, 0x9694264b95969855U, 0xb8a36d5cd849ea73U, 0x89ea2b9c89ab46adU,
  0x95ca5c9ebb995c38U, 0x375698b88e63c68bU, 0xaa6be689b4a6e7b9U, 0xa968ac9accc798d8U,
  0xc85d545a8d56488dU, 0x8b9b39496b5bb597U, 0xc8b9388d9bb6e9aaU, 0xb777978a84acc6e9U,
  0x3a3c76d4d36a655aU, 0xb73aebc69ee3a7e8U, 0xdb581bbb679b4b36U, 0xdc78ec668e226849U,
  0xab676b45695168c4U, 0x4aaa9fd59ee26757U, 0xc4aadbc7cb648943U, 0xe88bc869a3635bd7U,
  0x39b56aca66497777U, 0x58a4a598b5add66dU, 0x95ae87b7dd8bb8c5U, 0x5b88a47998c6c595U,
  0x58bc88dc576a7b6cU, 0xc824749a46b74dd7U, 0x938c9c53c9a6a767U, 0xc468365a75dd3bcaU,
  0x58c59c956d35b98bU, 0xba5a893ad49d65a6U, 0x6aac16c6b6c888b7U, 0x52a4eb598d68e49bU,
  0xcb6d95885c656b74U, 0x794a753a6bbd8838U, 0x78aceb46bb353e83U, 0xd4273c665db4b8ecU,
  0xad7d63a9a4b36458U, 0x5774e3665db86bcdU, 0x9797d83559e66676U, 0x663c9679a7e76784U,
  0xec968c8c798c6898U, 0x57753b868c68bd34U, 0x997ac8aeaaa5cc6dU, 0x3ba6695478ba878cU,
  0xbe338229be9c27f6U, 0x3fa457d2bedfa2d1U, 0xbb9c1d403f41ce5bU, 0x3fa15bbd3ea3c20cU,
  0xbf7697ff3fe9b4adU, 0xbf877bb5bdb4124fU, 0x3f2491ac3e7ea034U, 0x3ea2b81a3fc5b593U,
  0xbf64aaabbd30b325U, 0x3e332d6a3ec2b0abU, 0x3f11d2b7bf83d26cU, 0xbf35f2e4bf95efc9U,
  0x3ebea12dbe279084U, 0x3ed01e08bdcf1eaaU, 0x3eeeb6aa3dd24208U, 0xbeb9cf6b3f9e3d83U,
  0x3c48f714bdd9af5dU, 0xbee5abd63ea75805U, 0xbeb4d4dfbe792a41U, 0xbeb10c103e84c8c8U,
  0x3deb82eebec7c249U, 0x3e039a083c41be0fU, 0x3dcab3863df12b1cU, 0x3db8298bbcc75a5eU,
  0x3e361f1fbe9db755U, 0xbea40e403e6f632dU, 0xbdcbd0283ecd7b75U, 0x3ddc6a4ebb5b0347U,
  0xbda2f539bee70244U, 0xbef43cd43e8f5de8U, 0x3e309c83bd84e97aU, 0x3ec49e34bdfe971bU,
  0xbd32078cU,
};


ai_handle g_network_weights_table[1 + 2] = {
  AI_HANDLE_PTR(AI_MAGIC_MARKER),
  AI_HANDLE_PTR(s_network_weights_array_u64),
  AI_HANDLE_PTR(AI_MAGIC_MARKER),
};

